/**
  ******************************************************************************
  * @file    anomalymodel_data_params.c
  * @author  AST Embedded Analytics Research Platform
  * @date    2026-07-07T15:45:36+0530
  * @brief   AI Tool Automatic Code Generator for Embedded NN computing
  ******************************************************************************
  * Copyright (c) 2026 STMicroelectronics.
  * All rights reserved.
  *
  * This software is licensed under terms that can be found in the LICENSE file
  * in the root directory of this software component.
  * If no LICENSE file comes with this software, it is provided AS-IS.
  ******************************************************************************
  */

#include "anomalymodel_data_params.h"


/**  Activations Section  ****************************************************/
ai_handle g_anomalymodel_activations_table[1 + 2] = {
  AI_HANDLE_PTR(AI_MAGIC_MARKER),
  AI_HANDLE_PTR(NULL),
  AI_HANDLE_PTR(AI_MAGIC_MARKER),
};




/**  Weights Section  ********************************************************/
AI_ALIGNED(32)
const ai_u64 s_anomalymodel_weights_array_u64[1064] = {
  0x3e8938543e6b3bfeU, 0x3e11eeb33c5118e2U, 0xbdde2a70be8a4f20U, 0xbe690e67bc9cd2aaU,
  0x3e6285a0be85f3f1U, 0xbd82af8d3e5118e2U, 0xbe5e2a70bd2e3f67U, 0xbe784d8c3e1cd2aaU,
  0x3e070abdbcae3f67U, 0xbe212dd93dd118e2U, 0x3e141c4bbdb29a96U, 0xbe41d9bcbce285a0U,
  0xbcf3f25dbe2e3f67U, 0x3e557411bdf3f25dU, 0x3dbfac243e3d7e8dU, 0x3e212dd93e59cf41U,
  0xbe34c82e3e36f5c6U, 0x3e870abd3dae3f67U, 0x3db6f5c6be0d9384U, 0xbd6285a0be02af8dU,
  0x3dbb50f5be6d6996U, 0xbd6b3bfebe882188U, 0x3e486283bda9e438U, 0x3c2e3f67bd6285a0U,
  0x3e2e3f67be36f5c6U, 0xbdbb50f5be306cffU, 0xbe7a7b24bd7ca8bcU, 0x3dc407543d36f5c6U,
  0xbe57a1a93e761ff5U, 0xbe59cf41bd141c4bU, 0xbe3fac243d9cd2aaU, 0xbe7ed653bdde2a70U,
  0x3d1e77f83c301386U, 0x3e82f4ebbdcee3bdU, 0xbe57b184be5c1867U, 0x3d64e62ebe15aa32U,
  0xbda745bfbd5c1867U, 0x3e5e4bd93dd7b184U, 0xbde94d11be7f4f82U, 0x3e80c17abdcee3bdU,
  0xbe4849683d38e14cU, 0xbe0aa8f9be1c4487U, 0x3e82f4ebbe040ea4U, 0xbc8cdc6bbdf681bbU,
  0xbe4a7cda3df681bbU, 0x3e3d4830be8bc2b2U, 0xbe4cb04bbc7681bbU, 0x3e4ee3bd3d534aa0U,
  0xbe887588bd95aa32U, 0x3e57b184be0aa8f9U, 0x3e6b80833e297931U, 0xbb8cdc6bbe15aa32U,
  0x3e0aa8f9be1e77f8U, 0xbe38e14c3c0cdc6bU, 0x3dabaca23e0f0fddU, 0x3d41af133e2745bfU,
  0xbdedb3f5be22dedcU, 0x3e557e12bbd34aa0U, 0x3e3f7ba13d15aa32U, 0xbe864216be0f0fddU,
  0xbd8cdc6b3cf681bbU, 0xbe78b52d3e6fe766U, 0x3e557e123d7681bbU, 0xbe840ea43e875bcfU,
  0x3db20641be7bd6e5U, 0x3e13a148be4138bdU, 0xbcd06b393cbf0cf4U, 0xbdea78a0bd824304U,
  0x3e45904e3e4c13a8U, 0x3e00173bbe3f0cf4U, 0xbe45904ebd97f8daU, 0xbc8af226bd6a78a0U,
  0x3e7327c200000000U, 0x3e63f5463e5d71edU, 0xbdbf0cf43e45904eU, 0x3c2daeb0be5d71edU,
  0x3e4138bd3d1c506bU, 0x3e3ab5633e7bd6e5U, 0xbe88c65dbe0f49b7U, 0xbe15cd113e75538bU,
  0xbe79ab1c3e591a5bU, 0x3d3f0cf4be8358e8U, 0xbe3ab5633bd06b39U, 0x3e506b393dc36485U,
  0xbe3ce12cbcf327c2U, 0xbd1c506bbe61c97eU, 0xbe1e7c33be2b82e7U, 0x3e3f0cf4be17f8daU,
  0xbcbf0cf4bb8af226U, 0x3c2daeb03e56ee93U, 0x3e320641bd93a148U, 0x3e272b563c7327c2U,
  0xbe89dc42bd869a95U, 0x3e29571e3d93a148U, 0x3da4ff8dbe54c2caU, 0x3dd06b393e3ce12cU,
  0xbd8354bb3e309e16U, 0x3e42bb6e3e811110U, 0x3e7d9acbbd6b7d73U, 0x3dd9601cbe54d8c6U,
  0xbe132e68be49866fU, 0x3e791375bd87dc11U, 0xbcd9601c3d90eabdU, 0xbe0354bb3d9e80bfU,
  0x3e8598663e309e16U, 0x3b10eabd3e6b7d73U, 0x3dd9601c3e0c6367U, 0xbd7d9acbbd19f969U,
  0x3d9e80bfbe230815U, 0x3e8b4192bdb5256cU, 0xbd99f9693e847691U, 0x3db5256cbe1e80bfU,
  0xbe39acc23e4742c4U, 0x3e8fc8e8be811110U, 0x3d2c16c0bd6b7d73U, 0x3c7d9acbbe724874U,
  0x3e20c46abbd9601cU, 0x3e8476913c35256cU, 0x3d2308153ca30815U, 0xbe4077c33c35256cU,
  0xbd748c1f3cc742c4U, 0x3e8a1fbc3e6b7d73U, 0xbda308153e29d315U, 0x3e8111103ceb7d73U,
  0xbca308153d99f969U, 0x3df004c9bd99f969U, 0x3d748c1f3da30815U, 0xbdac16c0be5ba3c6U,
  0x3e7fc1c1be3bdb58U, 0xbe503a11be35111aU, 0x3b10da7b3e10da7bU, 0x3d35111abcfd7e57U,
  0x3e66dc343e6b6308U, 0xbe253934bdf470b0U, 0x3e1e6ef73e253934U, 0xbe8fb8c6be3997eeU,
  0xbdc2a595be86ab1eU, 0xbe7b3aedbe66dc34U, 0x3e8345ff3b10da7bU, 0xbe308a463d95614fU,
  0x3e19e823bdfd7e57U, 0x3d7d7e57be4bb33dU, 0xbd22f5ca3e2c0372U, 0xbdb997eebe0345ffU,
  0x3d19e8233e4bb33dU, 0xbcfd7e57bceb6308U, 0x3e472c693e54c0e5U, 0x3de255603e42a595U,
  0x3d5947b8bd99e823U, 0x3e5dce8cbe1e6ef7U, 0xbe57044f3d90da7bU, 0x3d22f5cabb90da7bU,
  0x3e4bb33dbe0c53a7U, 0xbca2f5ca3c7d7e57U, 0x3dc72c69be8a103dU, 0xbdbe1ec13e2c0372U,
  0x3e4df6a73e32cdb0U, 0xbd10da7b3e0345ffU, 0xbda77c9ebe3bdb58U, 0xbe88ee883cd947b8U,
  0xbe50c05a3d6076beU, 0x3e3c8cb43e62b55fU, 0xbe47c5d83c0fa828U, 0xbe1f5e8c3c8fa828U,
  0x3e4a0478bdd2fefbU, 0xbd8fa8283d18a2aaU, 0xbd8fa828be0fa828U, 0xbe4587373da61a6eU,
  0xbddbf97dbe88ec46U, 0x3e06ada63e7927a5U, 0xbe6732a03e4109f6U, 0x3dd2fefbbe0fa828U,
  0xbe046f05be577c3cU, 0x3e28590fbe0fa828U, 0x3bd77c3c3e380f73U, 0x3e0d6987be8c4a37U,
  0x3db80f73be50c05aU, 0xbe0b2ae7be47c5d8U, 0x3d3c8cb43e11e6c9U, 0x3e6dee823ce97141U,
  0x3e74aa643e577c3cU, 0x3e28590f3c8fa828U, 0xbe458737be8c4a37U, 0x3ca19d2dbce97141U,
  0x3cfb6646bd0fa828U, 0x3dd77c3cbd06ada6U, 0x3e8111143cd77c3cU, 0xbe50c05abda19d2dU,
  0xbe8e88d83e74aa64U, 0xbe6bafe2be47c5d8U, 0x3e046f053e726bc4U, 0x3e834fb53bd77c3cU,
  0x3e7fcd0a3bdd3bb6U, 0x3e2cd6a63e6fab5aU, 0x3b937d243e68c17dU, 0x3cb85c6dbcb85c6dU,
  0xbe87f75dbe25ecc8U, 0xbe51b5efbe92562aU, 0xbe835b743e85a969U, 0x3ca5ecc83e385c6dU,
  0xbe7d7f163e463028U, 0x3daf249b3e0a4552U, 0xbd78e32dbdf44744U, 0xbd25ecc83dc63028U,
  0x3d1cb4f6be463028U, 0xbc5d3bb63e589fcdU, 0x3dd89fcdbd8a4552U, 0x3daa88b2bd0a4552U,
  0xbdeb0f71bd1cb4f6U, 0xbe68c17d3e2a88b2U, 0xbd78e32dbdd89fcdU, 0xbca5ecc83b137d24U,
  0x3e41943fbe33c084U, 0xbe8ee13b3dfd7f16U, 0x3d2f249b3e5f89abU, 0x3e239ed43e84826eU,
  0xbc810d80be283abdU, 0xbe6b0f713e5651d8U, 0x3e5f89ab3e61d79fU, 0x3dc1943f3d2f249bU,
  0x3dfd7f163e0c9346U, 0x3d810d80bdaa88b2U, 0x3d937d24bb137d24U, 0xbe41943f3e31728fU,
  0x3d948fdabe0d991cU, 0xbc148fdabd306ad3U, 0x3e306ad3be32bd12U, 0x3b948fda3e8d991cU,
  0x3e9366ba3e7169c2U, 0xbca721d53d8b46dcU, 0x3e04501e3e42fcceU, 0x3de37c463d6820c5U,
  0x3b948fdabe454f0eU, 0x3e8b46dc3e08f49dU, 0x3d0b46dc3d7169c2U, 0xbe3c06103de37c46U,
  0x3e760e413ca721d5U, 0xbc148fda3e04501eU, 0x3dd58ec93e91147bU, 0xbdb50f523d7ab2c0U,
  0xbe42fcce3e8feb5bU, 0xbda27d56be0feb5bU, 0x3dabc654be227d56U, 0x3e0d991cbd81fddfU,
  0x3d86a25ebe350f52U, 0x3e7860803dabc654U, 0xbc5ed7c7bdd0ea4bU, 0x3e8feb5b3e3c0610U,
  0xbda721d5be84501eU, 0xbccc45ccbd948fdaU, 0x3ca721d53e6820c5U, 0x3e40aa8f3c39b3d0U,
  0xbda27d56bca721d5U, 0x3e760e413e01fddfU, 0xbe65ce85bd1dd8d8U, 0xbe5a3348be4c45ccU,
  0x3bdd0710bca5c54cU, 0xbe0ebf3bbd85899aU, 0x3cca9bcf3e314855U, 0xbda5c54c3daa601dU,
  0xbe43b397bdead782U, 0x3dc600ff3e4ce937U, 0xbe78a7f33e15a773U, 0xbd4a9bcf3da5c54cU,
  0x3e2a601d3d53d170U, 0xbe561ed83e765a8aU, 0x3e833c3200000000U, 0x3c5d0710be38308eU,
  0x3d25c54c3dc1662eU, 0x3e484e67be765a8aU, 0x3d663cb1bdb8308eU, 0x3e4ce9373ca5c54cU,
  0x3e0ebf3b3b135a0bU, 0xbdaefaedbe8a246aU, 0xbd78a7f33e3ccb5eU, 0x3e17f4dbbe110ca3U,
  0xbe9233573e35e326U, 0xbd53d170bdaa601dU, 0x3d41662ebd5d0710U, 0xbc5d07103de1a1e1U,
  0x3d1c8fac3da5c54cU, 0x3e740d22bd2efaedU, 0x3d38308ebdef7252U, 0x3e4f369f3e63ef49U,
  0x3ddd07103cb8308eU, 0x3e6d24eabe910ca3U, 0xbe212a7cbe4600ffU, 0xbd97f4db3d53d170U,
  0x3e09a8d93e852569U, 0x3e26ff31be542191U, 0xbcc697413e1bb699U, 0xbb906e013d9974e1U,
  0x3c58a5023e1bb699U, 0x3d227bc13d61abe2U, 0xbe89a8d93c906e01U, 0xbe8bea913e24bd79U,
  0xbd58a5023dab82a1U, 0x3d3d90613c58a502U, 0x3e6cf47abe3247c9U, 0x3e12afb93e4d5c69U,
  0x3dd42191bde62f52U, 0xbdbd9061be4f9e21U, 0xbe8646453e63ed9aU, 0xbcc69741be7a7ecaU,
  0x3cc69741be02e3b1U, 0x3e1df8513e542191U, 0x3e4f9e213d61abe2U, 0xbd227bc13e566349U,
  0xbe75fb5abe0bea91U, 0x3de62f523da27bc1U, 0x3e6cf47a3e390cf1U, 0x3dcf9e213cfcc082U,
  0x3e63ed9a3e24bd79U, 0xbdeab2c23dcb1ab1U, 0x3e348981be348981U, 0xbdb90cf1bdb48981U,
  0x3d4697413dc69741U, 0xbd9df851be8bea91U, 0xbe8f4d253e48d8f9U, 0x3db90cf1bdc213d1U,
  0xbe7a60acbd2e2cfdU, 0x3b8b5731bcf3d896U, 0x3e3f97e33e604053U, 0xbe06fc77be5102caU,
  0x3d2e2cfdbe7a60acU, 0xbe6f7ddcbe1eef74U, 0x3e5be5993e83b86cU, 0x3e211cd13d8fb1ebU,
  0xbdae2cfdbe29d244U, 0x3de6c8693e3287b7U, 0xbe0fb1eb3e4ed56dU, 0x3e0fb1eb3e6b2323U,
  0x3d86fc77bd140ca4U, 0xbe8a40833e2e2cfdU, 0xbc5102ca3e5be599U, 0x3e555d83bda9d244U,
  0x3e2e2cfdbe626db0U, 0x3d7c8e093e5e12f6U, 0x3e68f5c63dd9b83dU, 0x3d9cc217bda9d244U,
  0xbd6b23233c2e2cfdU, 0xbe1a94babe7ebb66U, 0x3e0b5731be2e2cfdU, 0xbe8a4083be36e270U,
  0x3d36e270be11df47U, 0x3e1a94ba3e5102caU, 0x3d36e2703d25778aU, 0xbe6d507fbe0d848eU,
  0x3e11df473da11cd1U, 0x3d0b5731be007461U, 0x3d73d896bc5102caU, 0xbdae2cfd3e234a2dU,
  0x3d336b6f3bcd0d12U, 0x3b08b361be1bec9bU, 0xbe0f1bcabdd9dde3U, 0x3d559848bc99c9cdU,
  0xbe846dc6bd958432U, 0x3e4481dbbe0ad62fU, 0xbd6f39eabb08b361U, 0x3d77c520be68d181U,
  0xbe28bd6cbd5e237eU, 0xbe5152adbb08b361U, 0xbe7e2d88be46a4a9U, 0x3d66aeb43e2ae039U,
  0xbe3bf6a53d846dc6U, 0xbdcd0d12be358e3dU, 0xbd9e0f68be48c776U, 0xbe0ad62fU,
  0xbd08b361bdfc0abbU, 0x3dbbf6a53e87a1faU, 0x3e66aeb4bdb7b10aU, 0xbe846dc6bd3bf6a5U,
  0xbe2f25d43e4f2fdfU, 0xbde6aeb4bd3bf6a5U, 0xbe559848be336b6fU, 0x3e6269193e835c5fU,
  0x3e59dde3be5152adU, 0xbe358e3dbd6f39eaU, 0xbe17a700bd846dc6U, 0xbd77c520bd80282bU,
  0xbe358e3d3e403c40U, 0xbe7c0abbbd3bf6a5U, 0xbd846dc63e6d171cU, 0xbd9584323cde237eU,
  0xbe656e343e82285eU, 0x3dc68badbe42222cU, 0xbe468badbe0afb60U, 0xbe4d29eebe468badU,
  0x3de56e343e4d29eeU, 0xbe1603223e519370U, 0xbd845d1ebe34e5a9U, 0x3e771438be6c0c76U,
  0x3dc68bad3e4456ecU, 0xbde56e34bdffe73aU, 0xbcd3c830be210ae4U, 0xbe29dde6bcc2222cU,
  0xbe371a6a3e6e4136U, 0xbbd3c830be1199a1U, 0xbd9199a13e371a6aU, 0xbdfb7db9bd88c69fU,
  0xbdee41363bd3c830U, 0x3d42222c3e0691deU, 0xbe34e5a93e5c9b32U, 0xbe1ed6243dac12a7U,
  0x3dbdb8abbd960322U, 0x3e88c69f3e1199a1U, 0x3e7948f83e0afb60U, 0x3d845d1ebe6c0c76U,
  0x3e5193703e4af52eU, 0xbe468badbe7b7db9U, 0xbdf2aab7bd7fe73aU, 0x3e32b0e83e85777eU,
  0xbe7db27a3e34e5a9U, 0xbe29dde63d960322U, 0xbdffe73abdcaf52eU, 0x3d0d3020be8c15c0U,
  0xbe592e4ebe78da63U, 0x3d5021b5be0579caU, 0x3e7fa3d6be78da63U, 0x3e49584300000000U,
  0xbe5b7174bc90c989U, 0x3d22e2babe845837U, 0x3e80f37ebe5264dbU, 0xbe1792fbbdefcdcbU,
  0x3d6b477f3dabef53U, 0x3e5db49a3db4fbebU, 0xbe0a00173e821511U, 0x3cd92e4ebd19d622U,
  0x3e7b1d8a3e47151cU, 0xbe8fa7f63d9e5c6eU, 0xbcb4fbeb3d07bcf0U, 0x3e34fbebbe0e8663U,
  0x3e10c989be5ff7c0U, 0xbe5db49a00000000U, 0x3e8215113e154fd5U, 0xbe428ed03e54a801U,
  0x3da76906be5b7174U, 0x3e7fa3d63e7fa3d6U, 0xbe0c433d3e78da63U, 0x3d3e08843da76906U,
  0xbd34fbeb3e623ae6U, 0xbdc28ed03dbe0884U, 0xbc90c9893defcdcbU, 0xbc7d60b03deb477fU,
  0x3c10c989be5db49aU, 0xbd19d6223d7d60b0U, 0xbe66c1323e6b477fU, 0x3e130cafbdfd60b0U,
  0xbdefc4efbe25a8a5U, 0xbe27d6a73e764ef5U, 0xbcf420f33d3718b6U, 0xbe0fdc8fbe536ed3U,
  0x3e189498bcae60aeU, 0xbe0b808bbdaa04a9U, 0x3e59f8d93d5140d0U, 0x3e559cd53e3fd0bfU,
  0x3e83df83be64dee4U, 0x3d943894be072487U, 0xbd9894983d59f8d9U, 0xbd1438943e5e54deU,
  0x3e62b0e2be1ac29aU, 0xbe442cc3be4f12ceU, 0xbdd9f8d93e3946b9U, 0x3e71f2f1be189498U,
  0xbd7420f3be0b808bU, 0xbd3718b6be8a698aU, 0xbda5a8a53e1f1e9fU, 0x3e81b181bdd59cd5U,
  0x3dfcd8fcbe559cd5U, 0x3cae60aebe04f684U, 0x3e3da2bd3e4888c8U, 0xbd1cf09cbb0b808bU,
  0xbe64dee4bd872487U, 0x3e120a92bcf420f3U, 0x3e3fd0bf3e237aa3U, 0x3e3da2bdbe6fc4efU,
  0x3e3718b63d1cf09cU, 0xbe3718b63c0b808bU, 0xbe5e54debe787cf8U, 0x3e1666963d1cf09cU,
  0xbd3de4433ce06adaU, 0x3c4f278ebe3de443U, 0x3e0a1a5fbdd37861U, 0xbe07f1f63d9b5dabU,
  0xbe55a0cb3d3de443U, 0xbe193541bd9fae7eU, 0x3e3bbbd9bc9b5dabU, 0xbe07f1f6bd8178b9U,
  0x3e2ca0f7be03a123U, 0xbe606adabdf5fef9U, 0x3d9b5dab3e7a4fccU, 0xbe4f278ebe55a0cbU,
  0x3e30f1ca3e423516U, 0xbbcf278ebc2ca0f7U, 0x3e445d7fbe66e417U, 0x3e606ada3e806484U,
  0xbde90c803d4f278eU, 0x3e782763be87f1f6U, 0xbe59f19e3d1b5dabU, 0x3e73d6903d970cd8U,
  0xbe423516be193541U, 0x3dc235163e445d7fU, 0x3e828cee3e84b557U, 0x3e1fae7ebd8a1a5fU,
  0xbe0c42c8be57c934U, 0xbe10939b3d970cd8U, 0xbce06ada3e57c934U, 0xbe89062a3d0a1a5fU,
  0x3d7a4fccbe331a33U, 0xbe445d7f3d92bc05U, 0xbe376b063e4ad6bcU, 0xbde06ada3e537861U,
  0x0U, 0xbc4baf1ebbf87585U, 0xbb9fd201bc31c5eeU, 0xbb99cd42bc5beca8U,
  0xbc5f6287bc5cf552U, 0xbc1ac8f6U, 0xbc6044f700000000U, 0xbb4d55453c589557U,
  0xbe7c11e33e803a13U, 0x3e56ceb03e3c8122U, 0xbe6a88dabe33bc9eU, 0x3c0c4849be58ffd1U,
  0x3e61c455be549d8fU, 0xbe849c55be2af819U, 0xbdf9e0c23e8b2fb8U, 0xbb8c4849be8383c4U,
  0xbe12dff2be86fec6U, 0xbe33460dbe265069U, 0xbe0c65203de4f3aeU, 0x3e1daca6bd356efeU,
  0xbe195ac4be6fc062U, 0xbe8927b7bd356efeU, 0x3e08133e3de0a1ccU, 0xbd92dff2be3e12c1U,
  0x3d5918cabe211265U, 0xbd4b17313dc095feU, 0x3df51bfdbdb99531U, 0x3e5758973e559864U,
  0x3e3294643e5e5964U, 0xbe211265be281331U, 0xbe22d298bdf89c64U, 0xbd050f323e2492cbU,
  0x3d4c7aba3e44e7f6U, 0x3c17775b3e7073e0U, 0x3d97775bbdee8f2fU, 0x3daa66463d93adf8U,
  0xbe22d381be5f69a6U, 0xbd8fe496be59bb92U, 0x3cb5c26d3d44e7f6U, 0xbd93adf8bdf25891U,
  0x3e2242483e05dd15U, 0xbe3ca0403e244982U, 0xbd42b5f0be80cb03U, 0x3daa5f323db27c1cU,
  0x3e7f8ecbbd09eb8aU, 0x3e120874bcf3636cU, 0x3ddf1b23be7f8ecbU, 0x3d8df9ffbca24248U,
  0x3e32a9ee3deb99c0U, 0x3e0f52debd0581cbU, 0xbe717d983ddbe4d6U, 0xbdf76170bdb88dc6U,
  0x3e79580e3cbc7b00U, 0x3def86fbbdc0683bU, 0xbdbc7b00be20fe66U, 0x3c9d112bbe369728U,
  0xbe03b0cb3e679804U, 0x3d1a6558bdb119e5U, 0xbe777ccdbe7c0750U, 0x3dac8f63bc7e4c91U,
  0xbc7e4c913dec2287U, 0xbd75378c3e21351cU, 0x3e902db2bd83b0cbU, 0x3dbeb96dbd237a5dU,
  0x3e6b3c50be529785U, 0x3e37b5323ce8fec9U, 0x3e8e42f4be6fb75eU, 0xbd81f08e3e595019U,
  0xbe0d24303d2a4409U, 0x3d0f61b73e01f08eU, 0xbd3c30403e1f1067U, 0x3e49a169be7f660eU,
  0x3e355cec3e891a0eU, 0x3d9b74383e21ee65U, 0xbde08b6ebd692e55U, 0xbe2cba06be1722c5U,
  0xbdb9ae603df1d13bU, 0xbdb9ae603df622afU, 0xbda4171f3e608b6eU, 0xbe3bd7193e692e55U,
  0xbe547d77bd3923cfU, 0xbd418e2abe816335U, 0xbe848b173c49f885U, 0x3e1dca28bdfc76a6U,
  0x3deba1f0be49f885U, 0xbe8598633df40c4bU, 0xbe69875a3e7c76a6U, 0x3e3b3e663e08c045U,
  0x3d9b7079bddc81caU, 0x3de3bc9a3e51a992U, 0xbe109841be658b4eU, 0x3ae75a023da9e619U,
  0xbdc333f2bd895d71U, 0x3e2648b1bd17d311U, 0xbe61ede63da2ab49U, 0x3d8cfad9be601f32U,
  0xbd830ce53e1ae0b2U, 0x3dfe2886bd92ef6dU, 0x3db6ad203e567231U, 0xbe449358be7c2c35U,
  0x3df63742bda2d1f6U, 0xbe6c49adbd8afe29U, 0x3c1ed9543e030ce5U, 0x3e723ea03e070587U,
  0xbd996fe4bdf73444U, 0xbdd51b67bdd95e82U, 0xbdaa7c523d90e9acU, 0x3e0ec81ebdfb7760U,
  0x3e152cc8bdeeae0dU, 0xbdea6af1bd8ca691U, 0xbe773444bdffba7bU, 0xbe8752aebe3fcbddU,
  0x3e8c36743e0d5116U, 0x3e48ef4bbe397a6dU, 0xbdee78d53e350fe4U, 0x3e8596a73e70ae19U,
  0x3b8d51163c8d5116U, 0xbd424f7e3d424f7eU, 0x3e86b149be2e7017U, 0xbe8361623d4b2490U,
  0x3df2cfa43e7b0abfU, 0xbe2ee803bcc58a8eU, 0xbe437bc73e51e337U, 0xbd83b1b43d8beccfU,
  0xbd7f284d3d9c6306U, 0xbe82aa51bdf6ed32U, 0x3e82aa513e1427eaU, 0x3e07cf42bdda1e52U,
  0x3db733ef3dd82decU, 0x3d8ee5f33dc5dbedU, 0xbd71d3e93e68aaeaU, 0xbd83e7f43d7927e9U,
  0xbcf927e9be582decU, 0xbd19e3f2bda4e1f1U, 0xbe0966f33e03e7f4U, 0xbe5f81eb3dea7feaU,
  0xbe3250aebe6f04a7U, 0x3e676e28be70ea47U, 0xbe2323afU, 0x3df69b27be121111U,
  0xbdc17dacbd26eeefU, 0xbd93f6b13c5475eaU, 0x3d3db26c3e34364dU, 0xbd361bedbde76e28U,
  0xbe6c565fbda795aeU, 0xbd793a803db02dc4U, 0xbe886e5e3da795aeU, 0x3d3d11e53db8c5daU,
  0x3e3479cf3d45a9fbU, 0x3d4e4212be1ab18dU, 0xbe72c86fbe830f50U, 0xbd70a26abe81fc4eU,
  0x3e7eb7643e8a3e56U, 0xbd140a503d2574f0U, 0xbcbf94e0bda9cf98U, 0x3e73d4c0be4ed22cU,
  0xbe2bfcecbde6c4c8U, 0xbdd0ff803e818906U, 0xbe4a7784bd6b1f70U, 0xbd140a503c0b5500U,
  0xbded0c0d3c96818eU, 0x3e4ef224be43a86cU, 0xbd8efb143c349b78U, 0x3d9a44cbbc70cf4aU,
  0xbcc3a86cbd0efb14U, 0xbe6d0c0d3e6eedabU, 0xbd87749abda1cb46U, 0xbe6eedab3dbfe52fU,
  0x3e4d2c413d92dc4fU, 0xbe379363bd019537U, 0xbe264c4bbcacc6f4U, 0xbe6d918f3db9bc46U,
  0x3e7a86e13e425fd2U, 0x3e785dfebe379363U, 0xbd8a38c3be83be1aU, 0xbe8924513e2cc6f4U,
  0xbdf30872be045dbeU, 0xbdeeb170be22beccU, 0xbdd05062bd938e45U, 0x3e0ae0413d6a5a6eU,
  0xbda4ea4d3e3cc8d8U, 0xbe58fe663e434b5bU, 0x3e02323d3e89ca80U, 0xbdba9d573e4e24e0U,
  0x3e7651443e3df4e8U, 0xbc4864d4bcc864d4U, 0xbe5701833e6be159U, 0x3cd917e5bd1ea527U,
  0xbe743ae2be5d44aaU, 0xbe03822b3de59e32U, 0x3dfa7e08be743ae2U, 0x3e4864d43e848d5cU,
  0x3e4204103e4a738bU, 0x3e2f093bbe2f093bU, 0xbd63c1fc3cca738bU, 0x3e15bac93df4a0f3U,
  0x3e7d106e3d17d6a8U, 0xbe63c1fc3e11830cU, 0x3e204623bd204623U, 0x3dd71ac4be85e9c3U,
  0xbe5f9e2ebd5f9e2eU, 0xbe751e9f3e70d1bbU, 0xbe61c4a0be305069U, 0x3e3f5d853d854f88U,
  0xbe54ddf63e8215ddU, 0xbd899c6bbe47f74bU, 0x3e5f9e2ebe8775f9U, 0x3e888932bde3eb11U,
  0x3e28ca44bdf6b178U, 0xbdd865c73e896997U, 0xbc9bce66bccfbddeU, 0xbe69b59a3d93267dU,
  0x3e42c200be224c55U, 0xbd9bce66bde561a5U, 0xbe78db72bce10db0U, 0xbdad1e393e0ca88eU,
  0x3e8957463e072930U, 0x3e8a6e503e27dc71U, 0xbe71fb4a3c0b855bU, 0xbe2e66b23e7ab3a0U,
  0xbd9899dc3d2e66b2U, 0xbe2152313dccebdeU, 0xbe2c389c3e8a6e50U, 0xbbd148083d514808U,
  0xbdabadc5bc64e7b2U, 0x3dafc431be5282caU, 0xbcf54163be5aafa3U, 0x3e422919be81c7efU,
  0xbe5ec60f3e5ec60fU, 0x3e68fe1ebdc84abbU, 0x3e5699363db7f10aU, 0x3e2fc431be39fc40U,
  0x3e27959cbd8b4a7bU, 0x3e0d77a53d59a460U, 0x3da10e1e3e8a33e6U, 0x3e6d3ad9be162c4dU,
  0xbc50efb83e84c2fdU, 0xbe13ff233bd0efb8U, 0x3e32776e3e891d51U, 0xbe162c4d3e06f027U,
  0x3dcf3769be392c12U, 0x3e0f49b93e020fb7U, 0xbdabf211bde9ab6cU, 0xbe3d94bd3e15e6b9U,
  0x3dabf2113e8bfb38U, 0xbe392c12bdb4c367U, 0x3d04440d3db05abcU, 0xbde542c1bdfb4e18U,
  0x3e827bd6be816c42U, 0xbdcfece03e0c0805U, 0x3e104652bceda100U, 0xbdf61d9cbe4112d0U,
  0xbc07c9b7bdb6770eU, 0x3e7c7b103ceda100U, 0xbe4331f7be652465U, 0x3e2dfa72be86ba24U,
  0x3daff782be062cbaU, 0x3d272b22be159262U, 0x3e419043bc765a84U, 0xbe0a92ea3e272b22U,
  0xbe555c1bbe2ff782U, 0xbe8bac763e3af6fbU, 0x3dc190433cc19043U, 0x3d912c32bdab9152U,
  0x3d840ac7bc2a607dU, 0x3c084d31be7b4e52U, 0xbe873c97be1d9941U, 0x3d90d204be6e8716U,
  0xbe6e87163e873c97U, 0xbb084d313e82fa2dU, 0x3c2a607d3e840ac7U, 0x3dff90bc3d1956d7U,
  0xbd9b6ea53d54b25bU, 0xbe81de213b02e3e9U, 0xbd5ce099bdc03ebeU, 0xbdd8c97a3e81de21U,
  0x3dafe2413e4a788cU, 0x3e1b6ea53dabcb22U, 0xbe2191543e7b8e04U, 0x3d134066bdc03ebeU,
  0xbcb58448be174391U, 0xbdadf41a3cf205b5U, 0x3d882336bd8fb363U, 0x3e4a50c5bdadf41aU,
  0xbe55a90a3e3d1475U, 0x3e3b306a3e5f1d43U, 0x3d5b552c3ddf1d43U, 0xbc9743913e7021aaU,
  0x3de0f6f23e6c7143U, 0x3e5a13f5bde58e46U, 0x3e4c4dfbbe22fc0eU, 0x3e431f553e0e5317U,
  0x3e1e64babdd330f8U, 0x3dce99a53dea2599U, 0x3e91c495bca547b7U, 0xbe67d9ef3e1781bdU,
  0xbd8b43933e86e976U, 0xbd9cac05be13f7ccU, 0xbd6b02083e028f5aU, 0x3e1ed9143e5bc6a4U,
  0x3e2106223dcc8b40U, 0x3e0f9db03dae1478U, 0xbe66a7ebbc9cac05U, 0xbe8a2d0cbe8178d3U,
  0x3e7b45b83e4fbeaeU, 0xbe3feaaa3e282ca5U, 0xbc9e48233cdd9831U, 0x3dcdc42ebe49cf2dU,
  0xbded6c34bd068a1eU, 0xbdd1b92e3e0e7420U, 0x3dc5da2c3df94b37U, 0xbe1c4da33e340ba8U,
  0x3e4afc03bdffefd8U, 0xbe5ca2a0be34ebc0U, 0x3dd838f93de10c47U, 0x3d5ca2a03e5ca2a0U,
  0x3d16082f3e0b000dU, 0x3e7b86313e8c1a77U, 0xbe445d893e27aecbU, 0xbe29e39f3dbdbf0eU,
  0xbd8125ca3ddb8d0aU, 0xbd711356bd711356U, 0x3e34ce803e2e596aU, 0xbe0e0ff7bd34ce80U,
  0xbe7bd67c3b89c1e8U, 0x3df561653e1036ffU, 0x3e4a54cd3e88ae64U, 0x3d573efa3e034cd1U,
  0x3dd1d2dabdeb842eU, 0xbdcd8aa1be62f3bcU, 0x3e83accfbe06e2faU, 0x3e87f508bdefcc66U,
  0x3e0d4f4fbe8076a5U, 0x3bcd8aa13e15dfc0U, 0xbe7a80f4be13bba4U, 0xbddeab843e7a80f4U,
  0x3e75a508baf79430U, 0x3d681aed3e1110d4U, 0xbe35d0d33ce81aedU, 0x3df3b5dfbd39af24U,
  0x3d4928673e35d0d3U, 0xbde43c9cbc1abc9eU, 0x3d39af243daa35e1U, 0x3cf794303c39af24U,
  0x3de777933e7b6bd0U, 0x3dd38356bd07b007U, 0xbe2b9adbbc7f6976U, 0xbe1fa1eabc7f6976U,
  0x3d1fa1eabe7d6aa3U, 0x3e796cfdbe498937U, 0xbd97a69e3daf9881U, 0x3e11aa25bd5f7c47U,
  0xbe644fcd3cbcf298U, 0xbe79f6443e5c705cU, 0x3d159563be21648cU, 0xbe178d3f3e351327U,
  0xbc7bee20be1d74d4U, 0x3cad33b6bd4cb17aU, 0xbe52990fbd85d681U, 0x3e52990f3d81e6c8U,
  0xbde239123da8b568U, 0x3e5a8dea3db43624U, 0x3e139ebb3dc76207U, 0x3cf564f5be737a2bU,
  0x3d6db9cdbe0a08caU, 0x3dbbe14cbaf564f5U, 0xbd3060903d56b856U, 0x3e5e637ebe58a320U,
  0x3e1b0c96be5ce458U, 0x3e69a2bf3cdce458U, 0xbc98ecdabdf66127U, 0x3dae2a32bde9a2bfU,
  0x3ddce4583d216bcaU, 0x3e3269a93e348965U, 0xbe7880e33e7221afU, 0x3e6de2373e86df1dU,
  0x3cd2496bbe267a1fU, 0x3e0c30f23e8b1890U, 0xbe316df2bdf555a8U, 0xbe4524d4be339eb6U,
  0xbdf555a8bdc0c34dU, 0xbe221898bd94f401U, 0x3c8c30f2bdd2496bU, 0x3dbc61c5bd1db710U,
  0xbe70fa77bdd3b35cU, 0x3e8f02b23dcab12dU, 0x3dc1aefd3ca22757U, 0xbd9022f8bcd83474U,
  0x3d9da63fbe3d2de6U, 0x3df7bc1a3dcab12dU, 0xbc5834743d2b2986U, 0x3e04e03dbe757b8eU,
  0xbe77da1bbe354c94U, 0x3dea151abcdc5018U, 0xbe39e394be5e9b98U, 0xbdf3431abe253c12U,
  0xbe758e9b3e91ba50U, 0xbe00840ebe20a512U, 0x3dd322173e152b90U, 0xbca53c123e657e19U,
  0xbe1e5a04be861230U, 0x3e82e76d3e24af8aU, 0xbe4ccd2bbdb9cc9bU, 0xbd072071bc28e88dU,
  0x3e4ccd2b3e18047fU, 0xbe0720713d423ea2U, 0xbe70b1c9be00caecU, 0x3dad21913e28e88dU,
  0xbe57001b3d665b8aU, 0x3e0e0dc9be609941U, 0x3e2eb0163cd7001bU, 0x3e28edccbe5cc265U,
  0x3e73cb8cbd4f5263U, 0x3e084b7f3dcf5263U, 0x3e6284aebdea3266U, 0x3e53293fbda516f0U,
  0x3e00fb423e4178e3U, 0xbe609b0dbcf91153U, 0x3e8d3665bde746f2U, 0x3e45eb7b3de2d45aU,
  0xbe4ed0acbe702c23U, 0xbdf911533d92c5a3U, 0x3e056dda3e29029dU, 0xbe4ed0acbe557c90U,
  0x3c96e5f23d1f480eU, 0xbbc93298be5194b4U, 0x3c6abb073e42e904U, 0x3e01f0ad3e55c5c2U,
  0xbdabdb38be55c5c2U, 0x3deeec15be731d23U, 0x3e53ad3b3e851578U, 0xbd300c45bd1f480eU,
  0x3c35834cbdc86ba4U, 0x3e44a3923d266305U, 0xbe578bea3ce2e41fU, 0x3dc86ba4be70205cU,
  0xbce2e41f3e1b0ad1U, 0xbe46879b3e0bea8aU, 0x3dcffbc73e0a0682U, 0xbd44a3923cf20465U,
  0x3dc22918bde57663U, 0x3e8c1abfbe707e8aU, 0xbddca310bdd3cfbeU, 0x3c771d083e0f69feU,
  0xbe1edbce3d27af21U, 0x3e8b0054bd771d08U, 0xbe022d02bddca310U, 0xbe8461d63e583967U,
  0xbd9943723e872b7cU, 0x3dee68eb3e872b7cU, 0x3db2ceb03e68061cU, 0x3e12e0a3be81d925U,
  0x3da609113df2aacbU, 0x3d6e68ebbe6e68ebU, 0xbe0a5ce43dbf944fU, 0x3ccc59ee3daa4af1U,
  0xbe83c5df3e42cb76U, 0x3e70a0fc3e4bf62bU, 0xbd6e564e3e83c5dfU, 0xbc5c00e63e9185edU,
  0xbdc080c93b92ab44U, 0x3e62e0edbe5520dfU, 0x3e7c165d3b92ab44U, 0x3d6e564e3db2c0bbU,
  0x3d8021b3be2273deU, 0xbdb70b92be6babb2U, 0x3e370b92be14b967U, 0x3dade4983e914ac9U,
  0x3d64ce763c370b92U, 0xbe5036c3bdb27815U, 0x3d0948aebdedf571U, 0xbc8021b3be202a20U,
  0x3e61acb0bddb769dU, 0xbe0481943c048194U, 0x3df02adc3cf872f6U, 0xbca5a1f9be2bd80cU,
  0xbd9511c63d9511c6U, 0xbe44b0583e837891U, 0xbda9c606be0cc9adU, 0x3e320e1f00000000U,
  0x3bd75ad83e845a7fU, 0x3e7007eb3e5e15aeU, 0x3d7b3f51be47a6e2U, 0xbdffbbe03e164cbcU,
  0x3d218422bb0f91e5U, 0x3d9d0792bde94d14U, 0x3e8e72c1be218422U, 0x3dc0ec0cbd45689bU,
  0xbb0e5de4be010517U, 0x3cc3c11abe057806U, 0x3e5c393d3d4ca6f8U, 0x3e8d4128be4a6d80U,
  0x3d31f55d3e7fd0b6U, 0x3e3adb3b3e0c246cU, 0xbe38a1c4be43c11aU, 0x3e703e71be10975cU,
  0x3e8156ccbddbfa6dU, 0xbd025b833d9accacU, 0x3bc389443e4592b3U, 0x3d025b83bdab181cU,
  0x3d53d4b53e20e8f6U, 0x3e746b96be0e9417U, 0xbd4baefdbd12a6f3U, 0xbe51cb473daf2af8U,
  0xbe2c402cbe0500f1U, 0x3d6b7b60be309c88U, 0x3e8a74643e82d2c3U, 0x3cbfdfc9bdae6e5aU,
  0x3e515138bc9cfceaU, 0x3e18a08fbe537f66U, 0x3d1444333e372711U, 0xbe4ac6afbdf43417U,
  0xbdce0d783d2bb5e4U, 0x3d903ca13cdbca1aU, 0xbd895e503e5a1286U, 0xbdecf5e400000000U,
  0x3d9a8a1abc971af2U, 0xbe231fffbdb6035eU, 0x3c895e503cf7435dU, 0x3e4e0d78be05ef28U,
  0x3c411dc63c2c8214U, 0x3c3a39f63b1b3a2aU, 0x3c248b5f3bff88a9U, 0x3c0b2dee3ba8a03fU,
  0x3c3bb3463c3e659bU, 0x3c3eb88f3c3524fdU, 0xbc42d12f3c3e4256U, 0x3c3ca7623c37a7f4U,
  0x3c2a6deb3c21351aU, 0x3c095ac43c3e9a15U, 0x3c0eadca3c3ab3f4U, 0xbc3c148d3c3f3ea4U,
  0x3c41e4b43c2b1528U, 0x3c2a2f663c01ea1fU, 0x3bad4c71bad234f0U, 0x3c3b2f723c42404bU,
  0x3c3505203c3a93e9U, 0xbc372cf83c2a2c73U, 0x3c4006b13bdbb78aU, 0x3c40e4fb3c2a1fb6U,
  0x3bc6dcda3c38cefcU, 0x3c427c9c3c408c8aU, 0x3c0591be3c2d6766U, 0x3c0c982d3c41980bU,
  0x3ba13f8f3c3ce13fU, 0x3c3ca28f3b6282ceU, 0x3bf44f6a3c208336U, 0x3c2703483c19c5d7U,
  0x3c099087bb643c5bU, 0xb9c3bd183c4120caU, 0x3c3035f23c0fdc9cU, 0x3c2f38fc3c217590U,
};


ai_handle g_anomalymodel_weights_table[1 + 2] = {
  AI_HANDLE_PTR(AI_MAGIC_MARKER),
  AI_HANDLE_PTR(s_anomalymodel_weights_array_u64),
  AI_HANDLE_PTR(AI_MAGIC_MARKER),
};

